[PAD]
[UNK]
[START]
[END]
!
"
#
$
%
'
(
)
*
+
,
-
.
/
0
1
2
3
4
5
6
7
8
9
:
;
=
?
@
[
\
]
^
_
`
a
b
c
d
e
f
g
h
i
j
k
l
m
n
o
p
q
r
s
t
u
v
w
x
y
z
{
}
~
¡
¢
£
¤
¥
¦
§
©
¬
®
°
±
¶
·
¿
×
æ
ð
ø
þ
ı
ł
ƒ
α
β
δ
ε
η
θ
κ
μ
ν
ο
σ
τ
а
в
г
о
р
т
у
ђ
–
—
‚
‡
•
‰
⁄
€
→
⇒
⌠
☃
☺
☻
♥
♪
♫
❤
。
《
》
「
」
あ
い
う
え
く
せ
た
っ
て
と
な
に
の
は
ひ
ま
め
り
る
わ
を
不
両
人
南
受
味
唄
左
库
後
意
手
拉
握
斬
最
歡
死
決
無
的
索
締
胸
苏
茅
裂
言
迎
里

�
you
the
to
it
that
and
of
we
what
is
in
me
this
he
on
for
your
re
have
no
my
was
do
not
know
are
be
##s
don
can
all
with
just
but
there
they
here
so
get
right
out
like
she
go
if
him
ll
about
up
one
now
yeah
at
got
her
how
come
well
okay
ve
think
want
did
will
who
oh
from
good
his
let
see
as
gonna
why
back
us
need
going
them
where
an
time
when
were
would
been
look
our
take
##ing
hey
yes
or
tell
could
some
man
something
had
then
##ed
didn
down
way
really
say
more
by
make
too
never
has
people
sorry
please
over
off
only
should
said
little
help
any
find
mean
because
##d
am
two
doing
thank
sure
uh
give
thing
very
these
still
even
anything
into
##y
##er
stop
mr
maybe
much
before
work
##e
first
nothing
their
wait
god
call
life
than
love
keep
last
day
talk
thought
again
put
sir
after
other
those
told
##ly
home
name
away
everything
night
long
guy
kill
##a
##r
things
won
does
someone
new
guys
better
ever
doesn
must
years
around
dead
place
done
stay
made
believe
always
##o
leave
great
hell
found
##t
through
coming
every
left
old
happened
might
kind
three
fucking
father
shit
fuck
lot
world
wanted
looking
which
##n
fine
understand
feel
listen
isn
dad
hear
house
wrong
killed
talking
enough
move
bad
nice
remember
being
came
may
another
else
course
wasn
own
trying
money
saw
girl
same
thanks
big
hello
##i
ask
getting
real
car
hold
son
next
friend
yourself
today
try
##es
show
family
care
many
best
took
knew
already
huh
mind
boy
went
wanna
run
head
ready
mother
ago
wouldn
gotta
heard
seen
job
together
everyone
men
guess
actually
morning
used
anyone
pretty
room
die
idea
mom
yet
baby
until
without
##l
use
open
most
start
bring
brother
gone
few
live
phone
##al
once
um
meet
both
lost
called
end
looks
working
whole
hi
while
hard
cause
case
days
saying
haven
since
woman
whatever
turn
alone
matter
##on
wife
safe
couldn
john
problem
door
hope
exactly
myself
second
friends
watch
face
five
##k
##h
##m
##in
trust
inside
probably
hand
year
death
excuse
miss
kid
soon
under
far
wants
check
minutes
hurt
knows
says
true
part
damn
bit
tonight
thinking
happen
ok
close
hands
shut
person
police
happy
fight
alive
means
blood
city
dr
deal
each
supposed
shot
somebody
##ers
agent
eyes
gave
tomorrow
taking
worry
point
hit
fire
school
easy
such
four
chance
body
stuff
everybody
makes
also
business
behind
ain
crazy
clear
play
change
set
gun
word
number
##man
plan
##g
side
having
war
least
##ie
water
late
hours
died
##en
rest
afraid
against
asked
save
ah
captain
sit
hmm
making
anymore
different
##us
##u
question
truth
later
welcome
power
heart
##an
##ion
story
beautiful
minute
cut
nobody
tried
high
stand
its
king
speak
sister
ass
aren
six
able
##le
half
reason
whoa
mine
break
doctor
almost
em
times
eat
quite
human
though
office
kids
line
telling
yours
##ic
daughter
started
##ting
team
week
lord
needs
##p
met
moment
wish
walk
waiting
read
sleep
comes
drink
forget
either
town
important
red
free
security
couple
fun
send
control
gets
brought
outside
president
10
promise
between
pay
murder
anyway
answer
running
seems
shoot
front
trouble
full
light
##able
company
lives
young
sent
months
bye
bitch
husband
goes
jack
##ation
anybody
game
jesus
##ch
000
child
taken
##th
party
##te
news
white
order
ship
possible
black
children
lose
lady
follow
sometimes
ahead
cool
drive
pull
##rs
past
himself
wow
##or
boys
pick
stupid
##b
protect
boss
happens
mm
detective
living
##ia
sounds
cannot
system
hate
air
leaving
shouldn
building
asking
killer
touch
girls
##c
somewhere
hour
##nt
shall
dog
##ment
choice
questions
moving
scared
along
20
food
country
##ity
##ry
feeling
information
daddy
hurry
luck
figure
missing
million
sound
attack
earth
street
secret
##x
drop
honey
sense
book
special
fast
known
##ge
##ter
clean
fact
perhaps
ma
##ted
hang
ten
happening
seem
##ies
finally
top
perfect
##less
sam
worked
bed
eye
##st
funny
jane
##is
dinner
step
weren
future
master
weeks
calling
hot
fbi
evidence
meeting
sick
buy
women
catch
serious
others
become
seven
lie
mrs
needed
sort
glad
report
##ce
less
killing
lead
longer
##ble
alright
parents
##ra
small
cold
peter
hospital
##est
none
married
works
worth
##ty
dark
seeing
##ling
victim
wake
playing
##um
lucky
list
message
weird
30
careful
unless
road
machine
explain
return
dear
state
worse
ms
queen
calm
saved
##ful
date
ones
piece
frank
imagine
##ine
dude
##ck
cell
##se
fault
turned
dangerous
felt
seriously
kidding
##ts
general
kept
given
##ian
contact
cover
sign
##ton
win
words
00
##re
law
anywhere
hair
looked
##z
fall
ground
takes
changed
strong
government
dream
quiet
buddy
force
crime
quick
caught
fear
learn
gentlemen
north
lying
till
mission
army
mistake
watching
weapon
##ping
entire
officer
walter
station
straight
wall
using
##el
nick
mark
alex
sweet
yesterday
##0
loved
mike
ride
##f
##ive
##ne
meant
cop
talked
##ke
feet
eight
##it
key
pain
swear
wonder
giving
prison
york
amazing
cops
copy
handle
target
##ma
history
worried
train
bet
thinks
boat
##ate
rather
miles
##ness
floor
seconds
##id
charlie
code
except
##ped
goddamn
##ar
##nce
expect
absolutely
plane
smart
stopped
henry
broke
finish
pass
throw
ran
act
##il
bank
hide
##ous
##5
truck
honor
across
hasn
situation
15
test
peace
##et
hotel
middle
box
ladies
##ist
##ve
poor
bag
computer
ha
write
suppose
charge
forever
blue
definitely
fighting
born
voice
##ary
coffee
missed
terrible
bomb
mouth
single
joe
personal
position
12
##tion
private
chief
month
near
beat
blow
forward
early
picture
tom
##ro
##ged
simple
during
totally
weapons
deep
evening
group
area
field
busy
certain
offer
island
##na
brain
access
bar
##age
land
count
short
michael
attention
partner
##v
ben
within
american
interesting
fix
relax
##w
standing
whoever
accident
scene
completely
sell
lab
impossible
paid
speaking
names
mad
service
music
##ur
feels
##rd
destroy
join
decided
address
##ng
stick
david
risk
class
grab
share
grace
spent
suspect
dance
ring
##2
arrest
50
figured
green
calls
holding
south
uncle
fair
##da
appreciate
slow
window
dying
##ant
100
murdered
wearing
christ
seat
record
card
track
orders
starting
sitting
space
strange
park
gold
##per
level
normal
named
prove
mess
spend
walking
public
magic
respect
##de
##ps
bill
ya
apartment
forgive
third
##ka
san
flight
neither
suit
nine
tired
##1
##7
agree
hiding
planet
holy
bullshit
hungry
self
enjoy
guns
doubt
james
soul
broken
realize
wear
##ure
enemy
guard
involved
military
instead
locked
moved
##ey
camera
search
age
van
favor
gift
##ent
carrie
##dy
harry
reach
fly
interested
tough
##ner
rules
obviously
birthday
jim
girlfriend
present
proud
commander
fell
finished
##4
grand
lived
pleasure
lieutenant
sun
wonderful
built
helping
##6
helped
honest
sarah
professor
sex
video
mmm
cross
stole
##land
##tor
keeping
low
push
medical
##as
smell
cute
phil
director
lock
trip
west
owe
##cy
clothes
mate
apparently
table
yo
escape
file
kiss
yep
board
burn
jump
type
surprise
##ring
investigation
quickly
round
stuck
learned
##led
certainly
following
signal
wedding
difficult
evil
paper
memory
pulled
support
hero
innocent
##ut
department
major
##king
cat
east
battle
gas
song
##ding
bear
forgot
upon
max
teach
choose
christmas
putting
relationship
##ated
angry
emergency
##8
##ri
rock
##3
##ta
##up
goodbye
##to
bloody
shh
##line
command
listening
cash
hundred
asshole
carter
arm
drug
foot
visit
hank
danger
##ley
data
eh
##son
guilty
location
##ging
##ish
blame
program
begin
crew
plans
ways
driving
hoping
ourselves
fish
ice
##9
##way
likes
paul
lovely
boyfriend
worst
continue
match
ooh
oliver
turns
tree
##les
bought
fuckin
star
idiot
mama
whether
bunch
lawyer
barry
patient
surprised
church
operation
liked
##ze
allow
carry
drugs
hole
prince
beyond
difference
whose
build
closed
lunch
awesome
breathe
sad
usually
problems
thousand
closer
beginning
monster
picked
brothers
deserve
besides
congratulations
crap
mommy
willing
base
consider
drunk
fool
immediately
##ard
bigger
court
heading
##ally
especially
records
tv
complete
wondering
booth
ex
movie
shop
showed
faith
planning
##red
bastard
decision
survive
##ki
bodies
feelings
promised
##ss
hadn
conversation
headed
double
numbers
threat
experience
losing
books
upset
accept
passed
rich
store
bus
doc
sleeping
america
knife
lied
radio
staying
steal
earlier
everywhere
horse
##ial
sake
spot
claire
##sa
account
club
final
responsible
##ir
##ue
sea
mary
11
files
##men
energy
favorite
bridge
truly
##os
finch
further
according
carol
fit
london
price
saul
##der
college
rick
ball
gives
##la
sweetheart
twice
##ving
kick
##sion
##ron
apart
joke
quit
ray
eating
checked
keys
notice
became
waste
justice
powerful
upstairs
excellent
herself
humans
jail
grow
empty
focus
press
themselves
device
gotten
judge
speed
tea
decide
knowing
ryan
failed
states
taste
##rt
anna
keeps
sold
often
sherlock
bullet
art
gate
soldiers
super
river
tight
##ries
mention
##nd
admit
afternoon
sword
clearly
hearing
roll
aware
shooting
##sh
seemed
fired
agents
taught
##ors
letter
secure
form
##ct
glass
victims
darling
finding
interest
##ious
##co
loves
witness
necessary
bringing
dean
destroyed
wind
reading
apologize
however
skin
##bs
credit
wrote
##ll
lights
previously
##ler
places
sing
##by
action
safety
client
clock
dreams
dirty
held
national
training
games
faster
local
correct
pressure
somehow
feed
trick
##ite
heads
hunt
loss
reese
itself
research
based
princess
above
damage
##ger
40
beer
bones
dress
moon
##me
due
recognize
##ah
allowed
chris
rule
stark
tells
english
murphy
leader
neck
travel
##do
race
smoke
criminal
unit
##ized
indeed
nervous
tommy
walked
shaw
##ible
##ions
beach
duty
fresh
lisbon
plus
##ns
adam
common
##ition
dna
otherwise
knock
roger
##ded
arms
lucy
site
marry
trial
angel
drinking
nowhere
dropped
french
possibly
united
bite
spoke
cars
fucked
gods
onto
##ize
serve
woods
cancer
doors
center
corner
lies
release
jimmy
noticed
remain
tony
leg
strength
strike
24
carl
dare
quinn
olivia
stolen
teacher
breaking
lots
lay
science
bottom
brody
jesse
##ks
driver
simply
huge
suggest
likely
sight
##ance
arrived
holmes
pack
camp
george
insane
proof
sergeant
sky
##bo
agreed
blind
heaven
##un
assume
main
##ction
mum
opportunity
walker
cry
followed
plenty
harold
heavy
shoes
attacked
cameras
cia
purpose
sara
belong
snow
sending
intelligence
virus
nose
original
stories
answers
created
defense
discuss
fought
storm
shame
sheriff
##pe
dollars
easier
hat
la
leaves
pop
believed
fat
loose
recently
stage
suicide
##ations
ends
honestly
tape
warm
nature
sees
wine
alan
extra
matters
simon
bird
breakfast
large
online
secrets
soldier
##ber
##house
colonel
including
robert
smile
##ris
danny
folks
saving
acting
bob
ours
realized
castle
letting
several
surgery
##ice
meat
source
sweetie
##ker
##well
connection
surveillance
treat
bother
flying
rid
teeth
understood
18
nearly
pictures
draw
paris
##ap
barely
brown
desk
##ya
breath
path
animal
thousands
crash
pregnant
trade
weak
##ating
25
remains
pal
turning
block
##tive
bell
ridiculous
##ad
ghost
create
senator
manager
##ip
eddie
process
career
jason
##at
note
##io
lee
vote
dealing
spirit
##ical
aah
roof
advice
exist
mail
##ence
aye
complicated
legs
played
##med
500
brave
prepared
details
hall
hidden
kitchen
nope
remind
de
map
##out
terrorist
downstairs
market
older
repeat
student
##ration
arrested
freedom
concerned
devil
greatest
prepare
ended
expecting
##ee
asleep
dick
travis
##am
##ko
charles
flash
raise
watson
paying
summer
appears
motherfucker
study
##ned
##uring
cost
fake
##ming
animals
film
hired
meaning
mercy
pieces
stone
##ual
witch
##ments
##ves
condition
hardly
marriage
powers
bathroom
caused
enemies
writing
##ics
chose
disappeared
property
##ain
##ium
dogs
federal
scott
unfortunately
##head
dave
walls
##ning
screw
tower
german
wound
##ot
theory
##cing
##ier
##ver
cook
emily
##ky
aunt
ships
awful
capable
demon
interview
shows
familiar
trace
##ney
martin
selling
size
suddenly
##ick
200
cure
cousin
crying
prefer
billy
received
##ai
##ga
led
patrick
##ster
rain
##lin
##nts
armed
pardon
thomas
weight
##ities
balls
beg
member
bro
central
comfortable
murderer
trigger
##rate
##ray
photo
rescue
dumb
horrible
responsibility
bottle
daniel
grown
guest
hanging
lines
outta
starts
##tic
al
band
technology
zero
##rey
lately
##lan
##que
burned
covered
forces
johnny
parts
sooner
although
brilliant
issue
##ism
##ji
attorney
forced
post
ticket
village
restaurant
returned
beauty
liar
##ak
17
babe
project
##ator
##board
##tes
grew
##im
##ise
bone
pants
warning
wild
chicken
excited
heat
language
scary
staff
thoughts
vehicle
##lo
natural
charges
cup
event
ordered
russian
nah
personally
##gs
kinda
perfectly
among
cases
expected
farm
hunting
##za
custody
fan
laugh
loud
protection
##ms
arthur
buried
fill
japanese
watched
alien
fail
rose
signed
dies
jake
weekend
##zed
famous
monkey
pocket
protecting
towards
tie
##ians
##wood
chinese
dig
mountain
pretend
##ds
##ied
##ship
view
##em
concern
freak
split
todd
color
memories
total
##ings
beast
exact
route
bleeding
checking
curious
runs
exchange
stayed
streets
##be
fate
non
usual
breathing
subject
backup
madam
request
showing
steve
##ug
falling
maggie
cheers
crimes
iron
papa
aw
brings
connor
##cks
16
council
practice
stars
chair
obvious
tracking
designed
julia
##hip
##om
pig
finds
shirt
spread
14
darkness
majesty
morgan
traffic
hm
jones
landing
leads
switch
##dle
afford
cards
fifth
forest
former
harm
jedi
network
scare
##ore
growing
jordan
page
richard
zombie
agency
biggest
harder
kara
kevin
mostly
written
##op
##room
papers
victor
disappear
dry
kate
kyle
poison
pray
wolf
##ified
awake
caleb
directly
eric
hurts
reasons
spell
tank
##ulate
dressed
ears
professional
throat
##ff
assistant
members
noise
pilot
threw
tyler
amy
connected
freeze
planned
ugly
universe
##ties
##use
engine
trapped
whom
##ca
##light
dragon
fingers
genius
##va
families
silly
##rian
ocean
text
##ters
fellow
footage
opinion
walt
nor
results
section
##ach
##ford
belongs
jacob
lower
students
package
warrant
##ins
alarm
dancing
mask
odd
##field
##ory
forgotten
permission
prime
raised
division
giant
larry
lisa
nuts
opened
rat
reports
stronger
avoid
clever
knowledge
laughing
mentioned
systems
##ham
13
airport
facility
ideas
illegal
social
##ade
##cs
##ha
andy
id
marks
nights
proper
regret
trap
##den
derek
extremely
managed
millions
minister
##ons
ow
twenty
units
##rn
began
license
rebecca
square
##go
deliver
depends
incredible
shots
trained
trusted
chip
delicious
model
##ft
identity
metal
pool
rough
##roll
##sed
add
amount
bauer
grant
introduce
issues
sacrifice
squad
tip
value
wood
##ol
ate
coat
guards
health
negative
positive
range
reached
washington
##her
##sy
##ul
rise
##load
##ls
##ress
##sive
alert
community
##ow
prisoner
progress
spy
zone
##ell
boring
monsters
neighborhood
santa
silver
##ile
##ked
confirmed
discovered
kingdom
invited
mile
vampire
##sing
alec
alice
annie
eventually
higher
ought
patients
##ung
60
crack
finger
trees
##ld
##pers
gang
wise
##gy
burning
junior
mister
pulling
signs
treatment
warn
##gan
##uck
blade
chest
doctors
stealing
##no
er
handsome
insurance
lake
picking
##mon
##py
aside
basically
detail
edge
highly
jacket
plant
released
whenever
300
bucks
cake
ed
internet
officers
survived
distance
physical
pissed
screwed
task
cares
dan
revenge
##ran
##time
basement
boom
lift
murders
official
suck
wire
##ja
blew
carrying
linda
rate
shape
spare
tiny
yellow
##rge
eggs
enter
female
fleet
fourth
grateful
legal
letters
marty
##ify
##mer
confirm
grade
jobs
marie
ugh
##back
##down
filled
fully
shake
violent
direct
direction
opening
woke
##ina
current
patty
settle
shower
bay
bureau
flowers
kills
served
wells
##di
changes
chocolate
male
##han
##ining
bullets
owner
st
winter
##ered
##ute
confused
hill
homicide
moves
slowly
##izing
faces
grid
knees
nurse
roy
specific
available
escaped
march
particular
points
##gle
##my
##ten
phones
presence
whore
##ass
##rated
manage
reality
screaming
bishop
california
dozen
japan
oil
pete
photos
royal
tech
bedroom
false
joy
launch
statement
terms
vice
vision
##oo
##tte
changing
courage
option
yourselves
##che
##igh
beth
bruce
cho
circumstances
convince
easily
friday
hundreds
wherever
abandoned
tour
betrayed
border
circle
deputy
percent
smells
##ou
##uing
ho
medicine
pleased
term
##li
convinced
sharp
stairs
china
equipment
parking
potential
punch
##rus
chances
guessing
pounds
victory
wash
aboard
ambulance
drove
mistakes
slept
solve
violence
##ral
##ses
considered
considering
da
exit
fancy
funeral
miracle
##mit
assure
impressive
suspects
cleared
ethan
events
pattern
remove
tear
##ball
##bing
##let
ancient
committed
disease
flesh
ruin
##lt
appear
hook
piss
rare
shadow
someday
steel
chase
clue
kicked
leading
provide
thief
##ide
arman
birds
guests
milk
nelson
nuclear
rachel
ser
##ald
aaron
bright
heh
recall
stomach
supply
windows
##ess
##one
actual
gary
supergirl
##uff
crossed
entirely
robbery
##tle
behavior
laurel
mayor
penny
skills
tail
trunk
cab
defend
garden
lonely
luke
stock
tied
##j
authority
cleaning
elevator
stranger
surely
touched
visitors
william
##ined
##kin
##mp
buying
fixed
image
meal
searching
cells
fantastic
nightmare
offered
per
suffering
useful
warren
##rk
bud
design
failure
##els
below
emotion
fellas
jealous
satellite
##lock
bike
coast
el
garage
horses
identify
services
##ans
911
brennan
response
speech
##and
example
nonsense
puts
regular
schedule
secretary
shock
wayne
##ria
attempt
clients
closing
crown
journey
lance
link
precious
profile
ruined
season
status
stopping
tall
weather
ear
flat
hated
setting
wet
##hy
appointment
cheese
deck
mexico
species
treated
chosen
drinks
expensive
grandfather
pure
##ok
carefully
fuel
gay
grave
ward
contract
cooper
international
load
paint
perimeter
sisters
sons
sudden
##ved
alpha
americans
claim
dunham
iris
lack
pair
trail
university
foreign
hannah
lesson
marcus
movies
ordinary
skull
soft
thirty
yard
##ude
amanda
explosion
##ents
##ny
##win
cream
dating
dexter
effort
factory
massive
mirror
plate
rent
riley
silence
tests
arrow
chain
effect
glasses
grandma
prints
sean
transfer
wasting
younger
##cher
##val
badly
humanity
knocked
meters
mood
passing
rights
shift
stood
style
##ba
##cture
##lar
##ph
golden
mystery
staring
tickets
##bly
##ew
##late
believes
birth
district
gates
incident
literally
loan
nasty
proceed
treasure
tunnel
##ust
advantage
authorities
brains
nikita
remembered
success
tokyo
waited
desperate
drone
graham
lincoln
nathan
singing
stu
sugar
wide
##ists
##mo
##side
berlin
brand
chasing
dump
pen
saturday
sec
serial
##ular
##zing
column
eve
gordon
infected
zombies
45
bobby
chicago
hire
pills
reported
union
##tered
goodness
intel
invite
katie
normally
shoulder
sometime
approach
blast
breach
county
facts
nation
row
stands
useless
##lly
bravo
conference
lane
midnight
multiple
protocol
samaritan
sat
tongue
wheel
ability
assault
cabin
disgusting
karen
resistance
rush
silent
sunday
technically
##nie
cooking
entrance
grimm
minds
pizza
spoken
suffer
sync
whoo
##tch
bags
kelly
laura
moments
monroe
robot
someplace
##mi
babies
button
fishing
helps
ill
lester
media
role
wing
##berg
##kes
activity
cheap
firm
messages
recent
solid
threatened
vacation
##bed
crowd
naked
possibility
teddy
unusual
##eon
##ino
core
falls
homeland
laid
pushed
spider
teams
traitor
warned
winning
##hold
##lay
exciting
library
mass
mental
witnesses
borrow
character
counting
defeat
fortune
gear
guarantee
kit
monday
throwing
##q
##tors
##ward
bastards
blocks
citizen
coincidence
daryl
hearts
mountains
separate
##rain
##vation
climb
currently
degrees
despite
steps
desert
gather
hack
laptop
ted
anger
combat
series
solution
archer
expert
panic
sample
understanding
##ened
destiny
foster
jury
smith
unknown
##ched
beating
billion
confess
creature
greater
jerk
seek
terrorists
boston
coward
dirt
elizabeth
lt
lucas
warrior
##ay
##old
##ome
##pa
##teen
becoming
classified
fence
friendly
healthy
owen
surrender
unbelievable
##fire
abigail
affair
attacks
british
stays
susan
wounds
##ren
##vin
bug
century
chat
fallen
hood
hunter
messed
steady
tracks
vincent
##als
##ering
##ery
##over
##ville
22
arrive
asset
carried
choices
houses
judgment
policy
romantic
##rch
##uation
##wn
cbi
celebrate
corrected
explanation
museum
offense
port
ron
##res
bow
dawn
eaten
hates
jumped
kidnapped
miller
nypd
period
screen
swing
troops
visual
becomes
challenge
hits
organization
pie
political
prisoners
refuse
taylor
##off
21
bang
candy
chloe
cole
coordinates
interrupt
ronnie
senior
sexy
similar
spring
tattoo
thea
##ants
battery
curse
dealer
goal
matthew
popular
rude
sighs
suspicious
uniform
warehouse
##dge
##right
badge
describe
documents
embassy
erica
gentleman
grandmother
joking
matt
##east
##ram
##rine
19
delta
europe
freaking
kiera
lily
standard
stops
talent
##all
##shi
accounts
bury
campaign
elias
helen
quarter
throne
transport
##town
april
cutting
dome
seal
swim
##logy
##more
##od
andrew
casey
drew
effects
impressed
legend
supplies
##iest
##tter
##ulated
##wa
90
hurting
investigating
joined
sale
talks
toward
unlike
##ably
background
delivery
dust
germany
lightning
result
rooms
society
wipe
##ada
##ware
anytime
approaching
bread
cam
carlos
drag
emotional
meantime
product
sucks
surface
tiger
wounded
##yn
davis
empire
juliette
offering
player
rip
texas
valuable
##come
##fy
##ited
##ov
##ura
firing
ignore
jon
learning
suits
wilson
##con
##ert
belt
digging
frankie
hacked
kim
lover
resources
terror
version
##ison
##ose
##uce
assuming
divorce
ending
gym
intend
stake
collect
cow
creatures
england
goin
handed
happiness
kinds
##ato
cameron
placed
pride
smoking
souls
struck
##ica
##rse
brian
deserves
egg
financial
machines
motive
odds
protected
riding
rob
therapy
wesen
##ative
##ric
angels
cast
gosh
inspector
julian
notes
trash
##ac
angle
capital
citizens
commit
employees
partners
rocks
slip
targets
wave
##ase
##rid
##rin
blown
channel
friendship
levels
rolling
shane
##00
##ama
##gh
##hi
amen
begging
brad
doug
dragons
fed
gps
loaded
merry
operations
performance
##low
##our
##ture
23
bound
compound
criminals
ellen
engaged
estate
hopefully
laughs
los
nancy
pity
timing
##pt
anti
butt
cassie
deny
dollar
fella
grandpa
invisible
nazir
pushing
rigsby
shield
tap
taxi
##born
##ght
##hole
##ures
aliens
kitty
score
suffered
##des
decent
demons
disappointed
elderman
exposed
franklin
governor
joint
respond
wallet
wanting
##bling
##die
##ett
##rating
##unt
alley
christine
dana
shopping
tissue
##zy
addy
africa
creepy
doin
downtown
entry
laws
leo
neighbor
object
reaction
safer
sophie
temple
tim
##mate
##ncy
##tent
##ume
cleaned
delivered
highness
options
properly
radiation
stabbed
toilet
##ni
actions
active
aim
escort
gray
messing
palace
precisely
priest
related
threatening
branch
captured
debt
desire
dropping
officially
pathetic
prize
require
rome
scylla
sentence
toast
torture
web
##ination
80
con
louis
madame
mon
root
snake
spending
starving
teaching
traveling
undercover
wings
##tein
adult
chemical
compromised
guide
helpful
juice
opposite
plastic
scream
sensitive
##ens
##ished
beneath
bust
doll
heal
particularly
priority
procedure
##ek
##fully
##kins
##ple
##zz
benjamin
enterprise
instructions
maria
ripper
spanish
storage
##ils
balance
capture
material
removed
shelter
successful
vault
##ban
##ich
##ig
##iles
bin
champagne
chuckles
earned
frobisher
helicopter
hoped
lannister
owns
rounds
sand
sebastian
uses
##mination
##ub
co
fort
fox
hers
latest
loyal
pussy
shortly
zoe
##lation
bath
bless
hr
moriarty
reputation
scan
shared
wasted
##gard
##ulation
acts
article
begins
emma
football
hid
identified
jet
marcel
mason
reminds
slave
suggesting
thin
##und
angela
customers
heck
loving
marine
scientist
tandy
tricks
wins
##oon
abby
baseball
bond
cap
counter
drill
emperor
fifty
garbage
hung
maintain
slipped
strangers
un
weakness
##aging
##cious
##ira
##nic
##pect
##uki
##using
bombs
dale
demand
jessica
locate
miami
mount
movement
parker
pink
recording
signature
##ea
##its
##ony
closet
coach
crystal
eva
highest
nail
poisoned
receive
rope
stress
champion
communication
critical
felicity
knight
kun
nsa
pin
tragedy
##chi
##iff
##iled
##rry
ashamed
blah
cage
complex
effective
engage
entered
extraordinary
france
hug
jay
landed
ohh
painting
personnel
##erson
##gie
##ud
##work
cass
comfort
confession
consequences
donnie
exercise
fashion
fingerprints
gain
guilt
hitler
privacy
tears
walkers
##jo
##urt
agreement
cheating
frankly
hammer
heroes
homes
ii
injured
invasion
jerry
neighbors
rifle
sounded
trauma
unique
witches
##ect
##fer
##he
ahh
allen
confidence
harrison
headquarters
killers
lizzy
owned
rings
sue
wh
wrap
yup
##rell
charged
cock
crashed
diamond
paperwork
pee
porn
sexual
##gen
##ule
##vor
bait
bout
connect
darcy
drawing
dumped
dylan
experiment
impact
loyalty
matches
patience
pot
psychic
required
shoe
surrounded
theater
##istic
##tory
competition
daily
database
greg
jo
republic
shooter
survival
##inate
##live
##print
##rim
##sis
argue
bars
charming
conspiracy
damned
duke
frame
hanzawa
hostage
operating
oxygen
requires
survivors
##ack
##ional
##ken
behalf
evan
fighters
francis
holds
immediate
natalie
shown
sweets
tara
toy
##ash
##ret
##row
##water
awkward
catching
cisco
clearance
employee
facing
glenn
northern
possession
testing
urgent
valley
winterfell
##ast
##book
##ranny
##urs
27
accused
advanced
aid
bored
busted
chill
collection
crush
decisions
engineer
jeez
locker
maid
math
patrol
random
russians
samples
sins
underground
underneath
##act
##bility
##rity
belly
collins
degree
description
isaac
jean
pretending
sides
solved
stan
threats
uncomfortable
yen
##ification
##matic
alibi
apple
audience
mistress
potter
r2
scofield
sealed
serving
##po
##rows
##tt
ambassador
analysis
bat
chick
conscience
disaster
fever
fusco
hannibal
imagined
missile
sweat
twins
##athy
##gation
##gon
##ural
##ury
anonymous
apologies
assumed
diamonds
elder
exists
feds
flower
idiots
jeremy
lad
loser
malcolm
reward
sin
sneak
winner
##nut
##rie
35
answering
artist
assistance
cigarette
crisis
cruel
fairy
holly
howard
imagination
joining
minori
mud
obsessed
plain
registered
shell
tracked
##ars
##ets
##guard
##hart
##itive
##non
##stitute
claims
companies
embarrassing
hitting
invitation
listened
phase
recover
saint
settled
stable
temperature
terrace
worries
##dra
##fish
##rous
##ys
afghanistan
breaks
destruction
enforcement
enjoying
florida
fruit
internal
navy
prevent
prick
regarding
reverse
slade
thrown
transferred
##og
abu
academy
chop
classic
construction
couch
dennis
glory
holes
host
seats
strategy
studying
walks
##ces
##gar
##point
48
abe
cared
chuck
colleagues
costs
customer
dragged
investigate
lionel
melissa
patch
photograph
scratch
songs
struggle
tax
touching
##sty
##uri
ages
bail
basic
brief
closest
covering
determined
emotions
flag
grief
han
influence
intention
lawyers
lets
lifetime
log
magazine
monsieur
nazi
shelby
skyler
subway
supreme
tend
##ag
##rade
##yard
bombing
chamber
earn
filthy
finest
fucker
hostages
monitor
sacred
sensei
smarter
##rick
##tie
abbott
angeles
apocalypse
asks
boots
centuries
chaos
confident
damaged
ease
gorgeous
print
quality
rats
recovered
soup
tested
title
tone
vampires
wishes
##ches
##sm
##ui
advance
anne
argument
begun
determine
fighter
generation
global
lawrence
located
nerve
perform
plays
reasonable
refused
routine
safely
salt
shine
software
tuesday
update
##ily
##lon
##posed
##ru
##yer
273
banks
bull
deserved
dreaming
inch
inform
insist
josh
naturally
orange
packed
pre
pulse
rabbit
rudy
slide
##cted
##nk
##rass
##sian
answered
assholes
existence
flew
ian
iraq
jungle
mixed
planted
retreat
rice
sales
selfish
specifically
stab
##ein
##ez
##lies
##lip
beloved
bolt
civilian
continues
en
horn
marshall
pet
reporting
returning
spin
yards
##ax
##eration
##gage
##ire
##lor
##port
##tain
##uit
##uo
abraham
alcohol
cities
deer
digital
entering
gardner
halfway
injuries
jersey
jess
joffrey
paranoid
ripped
spotted
swimming
swore
thick
##ete
##hs
##ila
cats
congressman
deeply
engines
environment
harris
images
joan
league
mole
pierce
punishment
radar
smooth
visitor
worthy
##aking
##ening
##fied
##lish
abandon
apply
charity
colleague
computers
corporate
daughters
liberty
lion
mix
mysterious
parties
percy
practically
requested
sail
sally
scar
server
speaks
surgeon
thirsty
##ico
##ption
##run
##unk
apology
blowing
concerns
frodo
mia
mobile
modern
moscow
motion
plot
recovery
spirits
##don
##ep
##ization
benny
childhood
conditions
deadly
differently
francisco
frozen
guardian
homework
mankind
sasha
tale
yelling
##ame
##hood
##zzy
actor
ash
avery
beans
boxes
deeper
executive
extreme
feeding
forth
klaus
measure
recommend
reveal
throughout
tortured
twelve
##ight
##lare
##ledge
##nding
##pel
##rum
##umi
assignment
chef
focused
granted
gross
incoming
loop
mistaken
newspaper
oz
passengers
rumors
shed
shy
territory
testimony
twilight
##gram
400
admiral
bills
checks
chips
chow
clinic
fred
germans
healing
kings
miranda
needle
occurred
sandwich
slaves
whiskey
writer
##cent
##gies
##ik
##mes
##ort
##uffs
associate
deaths
developed
experienced
fights
impression
precinct
stannis
starling
tools
unfortunate
vegas
voices
##bag
##bled
##ced
##gic
##gling
armor
communications
creating
detectives
dubaku
education
grabbed
guts
lips
miserable
opens
po
remote
retired
sector
sharing
shuttle
thieves
wars
##acy
##away
##box
##cut
##tto
70
dates
donald
fraud
genetic
hacker
lands
magical
noble
ollie
posted
primary
promises
revolution
rising
russia
scientists
structure
visiting
worlds
wrapped
##duction
##ella
##iling
##ku
##law
##licate
##nis
##uke
avenue
barn
broadcast
causing
chairman
chopper
civil
coke
dagger
electrical
embarrassed
engineering
equal
explains
fits
flood
individual
kidnapping
mouse
personality
senate
session
sookie
superior
##ci
##gus
##ising
##iss
##ius
##position
##rp
##zer
accepted
adventure
anakin
attitude
barbara
beings
beside
bride
fascinating
highway
incredibly
intended
kissed
leak
maya
norman
pipe
pound
questioning
recorded
replace
soil
sport
television
teresa
wolves
##cle
##lines
##nsion
##sha
##stone
##usion
assigned
barnes
dory
eugene
gabriel
gravity
hal
kicking
marilyn
native
ned
nicholas
provided
robbed
scout
smiling
starfleet
therefore
wiped
##bie
##cho
##cker
##logical
##rts
##ux
accent
attractive
burns
butcher
ceremony
clay
committee
contacts
drones
evans
forensics
gut
interrogation
jules
june
reggie
residence
skill
stations
upper
wicked
##dor
##itter
##rent
adalind
assist
average
beef
benefit
chad
duck
generous
grass
gregory
hatch
hobbs
hon
nearby
painful
pod
politics
scale
suggests
##cal
##coming
##icient
##ill
##imate
##lot
##mic
##ously
32
attached
bleed
charlotte
concentrate
corpse
habit
hills
holiday
labs
muscle
nicky
pit
smaller
snap
tag
thy
wade
##nny
##pped
##shed
##vention
##vo
bitter
comment
frequency
hodgins
hunted
italian
merely
nigger
ops
pages
pro
reed
rocket
tooth
##boy
##dles
##erd
##mond
##pin
##rat
##vey
##zo
betty
butter
cargo
confirmation
express
helmet
passion
quietly
remaining
##cation
##ita
##ners
##sit
##tate
##ti
##wan
affairs
belonged
buildings
claimed
counts
development
explosives
gail
ken
knee
lana
marshal
mighty
mill
morgue
nicely
peaceful
ranger
significant
##cated
##lla
##phone
##read
##uced
28
ashes
bible
deb
johnson
liber8
meth
moses
pointed
ringing
sansa
temporary
wives
worker
yay
##eo
##fia
##of
##rley
##uction
chess
comin
flies
hail
inches
judging
molly
narrow
operate
passport
pope
sink
skip
suspected
symbol
telephone
thursday
warp
##ander
##ano
##cha
##ift
##mark
##quire
##roy
##test
cave
compared
dive
elliot
evacuate
fund
ghosts
hop
martha
resist
turkey
wondered
wore
##hile
##ject
##kers
##lle
##rank
##rta
##west
abuse
bomber
brooklyn
coma
controlled
curtis
deals
drama
edward
elijah
email
jenny
pelt
previous
pursuit
rumor
shadows
williams
##atic
##ave
##ching
##fall
##link
##power
affect
arrange
betray
consciousness
divorced
drawn
handled
invented
lena
leon
limited
necklace
rage
raven
seth
solo
traces
##ctor
##ille
##mb
##ology
##sey
##ually
appropriate
cloud
coulson
driven
drives
faced
gathering
halloween
indian
limit
motel
password
proven
punished
relevant
represent
spit
vigilante
##ane
##itz
##otic
##ree
##si
bothering
civilians
fetch
ford
forty
houston
jill
jude
powder
scientific
##cope
##ho
##ven
##worth
alicia
arranged
assassin
asses
bailey
cal
cancel
electricity
episode
larger
lungs
oi
pays
pigs
pile
pockets
review
skynet
zoo
##ado
##kov
##mal
##mus
##otics
##rm
##ston
##tra
##ured
##zon
admire
appearance
bee
crowley
cylon
dom
foolish
gus
honored
india
infection
irrelevant
mails
pitch
propose
raymond
samantha
studied
terribly
threaten
tries
vehicles
##ciation
##ines
##ora
##rina
##rise
##tions
albert
attend
beaten
beats
brandon
ceo
defendant
dug
explained
felix
freezing
hooked
lecter
lori
meetings
psycho
radius
reporter
sober
stones
transmission
vaccine
violet
workers
##ache
##berry
##ona
##vert
##vis
##yle
absolute
arrangement
assets
bowl
chappie
cursed
flynn
kingdoms
liz
maker
perspective
relieved
roommate
servant
sets
strip
studio
theft
ties
trailer
##aries
##gles
##ias
##ighter
##lee
##tail
amber
associates
brush
christian
completed
controls
droid
gunshot
hoo
mob
novel
prep
production
rape
relief
rita
symptoms
thee
##ern
##ised
##ith
##las
##min
##rich
##visor
connections
fried
jam
liv
madison
management
observe
reactor
stubborn
subjects
testify
triple
whip
##14
##eer
##ges
##ibilities
##lings
##try
26
bitches
bucket
codes
cowboy
enjoyed
gifts
hewes
immortal
inner
inspection
joey
kissing
limits
masters
mid
outfit
parent
pepper
planes
ruth
sends
unconscious
vessel
weed
wisdom
##bia
##ees
##iation
##ically
##iki
##int
##itor
##oke
##rds
##stic
abducted
ammo
bounty
bourne
clark
contain
detect
diego
facial
heir
lords
motor
nina
platform
sheep
slightly
stretch
tablet
unable
wears
youth
##cate
##lie
##pd
##pose
##rah
##uel
##vers
atmosphere
baker
boo
bunny
catherine
corporation
discussion
fantasy
gretchen
intelligent
intense
knocking
preparing
rear
sources
spies
string
sweep
tanner
targeting
understands
wizard
##12
##are
##ates
##gins
##nder
##ployed
##round
##ying
##zi
bernard
commercial
expression
flow
gentle
giants
ginger
gloves
junk
minor
mortal
nicole
november
portland
quote
rig
searched
sniper
somethin
ta
trent
zoey
##armed
##aw
##rand
##rust
##tal
afterwards
astrid
blonde
blows
bold
circus
communicate
corporal
devices
eternal
forensic
gotham
hector
hudson
humor
nephew
nothin
occasion
oscar
pan
parked
punish
puzzle
randy
recognition
repair
squeeze
stepped
toys
tradition
turner
##bound
##ign
##inger
##lated
##lect
##lton
##rial
##rrow
##sions
29
autopsy
blocked
charm
corrupt
disagree
dorothy
exhausted
hercules
investment
kong
lessons
ls
mathison
organized
passenger
patterns
peterson
pump
puppy
rosalee
tool
uchi
wrist
##avier
##bles
##laws
##logist
##nne
##pi
##pic
##ye
47
annoying
blackout
bothered
brewster
combination
cooperation
efforts
foul
frightened
heights
industry
interests
jonathan
lobby
methods
net
noah
purse
sauce
shrink
theirs
trading
ups
##ection
##hand
##urn
##ws
absence
aggressive
buddies
cable
cigarettes
comrade
demands
denied
fifteen
fridge
ham
justin
lovers
marijuana
moral
noon
razor
spock
switched
tactical
terrific
waking
##af
##ages
##ail
##any
##bon
##fill
##gnetic
##just
##kie
##loaded
##rap
##uin
36
800
activated
anniversary
approve
arts
bargain
bella
blessed
burden
casualties
cease
congress
counselor
crossing
cuts
cyber
election
ellis
figures
freddy
hopes
ivan
leverage
medication
meds
metatron
metro
nut
pointing
programmed
quarters
realm
recognized
relationships
remarkable
simmons
skywalker
visited
western
yell
##aked
##bell
##fly
##gled
##ima
##lea
##raine
##ther
##ways
arrival
barbie
beacon
bean
believing
campus
countries
dc
dea
destination
diner
drank
drops
filed
harvey
hodor
hollywood
informed
introduced
khan
moron
oath
paintings
paradise
plug
positions
religious
responding
sub
terrified
treating
unexpected
virginia
vodka
volunteer
website
##ab
##dies
##ient
##iking
##imated
##pot
##ques
##rett
##tation
##terior
##uv
bacon
blake
cracked
diana
dispatch
drowned
forgiveness
harper
height
na
praying
sack
scum
skinny
sports
strings
tastes
tessa
tucker
twist
twisted
washed
##13
##au
##chy
##dium
##end
##etic
##hen
##lia
##lished
##not
##posing
agenda
bunker
camille
christopher
dancer
deposit
destroying
electric
gellar
hallway
insult
item
jar
madness
marines
nails
psychiatrist
tumor
victoria
waves
##erry
##inal
##lance
##lic
##pes
##ribution
##rit
##rot
##sight
##voy
##vy
attacking
batteries
beard
bend
bon
cooperate
discover
eagle
elaine
error
goat
grey
griffin
intercept
jazz
mycroft
nightmares
obey
painted
palm
rangers
replaced
riko
sites
smash
sticks
tanks
traced
treason
widow
##ang
##bbing
##cies
##elia
##losure
##natural
##ncies
##oring
##osis
##pression
##race
##ulating
##unction
42
abilities
acid
adorable
advise
alternative
approximately
carly
cried
dominic
dwarf
groups
grows
honour
makeup
merlyn
minus
necessarily
payment
piano
pilots
punk
receiving
russell
sharon
steak
sworn
torn
waters
wheels
##ace
##bit
##cular
##gers
##oid
##ows
##ox
##ployment
##rman
##servation
##urge
##wing
aircraft
bennet
buck
cartel
cheat
contacted
formal
function
gotcha
heavily
horror
indicate
joseph
legacy
misaki
nest
niece
principal
produce
proved
raid
scheduled
vulnerable
##bel
##bra
##bridge
##cked
##cup
##dad
##igo
##inated
##mine
##nsive
##top
##uded
##uous
##yes
arguing
auto
bare
boxing
briefing
cheer
delay
droids
echo
fury
grounds
increase
jaime
lit
liver
lockdown
mizuki
mutual
october
outer
presents
roads
rogers
sarge
sequence
shitty
succeed
superman
thanksgiving
traveled
vest
warriors
##ana
##issa
##ister
##lving
##rable
##rc
##rill
##tage
bears
behave
chased
cookies
expose
fiance
fiona
fools
include
intentions
irish
jewelry
leaders
marked
megan
ou
permanent
prom
raw
shark
shouting
therapist
##ala
##bal
##can
##due
##eni
##hew
##ilton
##ju
##piece
##rier
##sal
##ser
##tis
added
angie
ballet
caspere
coin
conscious
dealt
ensure
execute
facebook
fires
flip
freaked
fugitive
halt
injury
jackson
jumping
lou
manner
opera
tess
th
upside
whereabouts
##ability
##bby
##bi
##dal
##form
##ichi
##illa
##lane
##lion
##mates
##place
##prints
##rth
##table
##tin
##tled
##tles
##uda
attempted
backwards
barrel
creek
decades
erik
fans
fitz
galactica
gathered
katniss
kirk
langley
lap
laundry
mustn
profit
sammy
satisfied
scenario
senses
severe
shotgun
sixth
spike
sticking
tent
terrorism
##aa
##dt
##maker
##oe
##pet
##tling
##uum
andrea
arnold
assured
belief
conduct
conflict
costume
courtesy
discussed
distracted
elements
executed
fields
gideon
imperial
laying
manhattan
martinez
moira
morris
parrish
photographs
promotion
proposal
rescued
retrieve
sydney
tin
unlikely
violation
##ari
##art
##ette
##hone
##tained
##trate
amongst
appeared
boats
calvin
causes
coffin
corn
cunt
flames
fond
forgetting
globe
gum
handy
harvard
heather
hip
intact
involving
jew
lorelei
mars
mcgee
meanwhile
negotiate
operative
overnight
packing
passes
persons
pirate
pops
population
psychopath
reaching
rot
september
shore
##bes
##cchan
##day
##ex
##finite
##graph
##iable
##istics
##lk
##ribute
##rite
##scription
##trated
##ull
150
austin
blog
bump
collar
confessed
distract
doomed
ella
existed
experiments
gandalf
gratitude
hugo
instinct
jennifer
jokes
maintenance
parole
pumpkin
schools
shaking
skye
swan
trusting
tube
val
virgin
zeus
##ceived
##ders
##ield
##mie
##nal
##phia
75
allies
banker
becky
brick
coroner
declared
discovery
dozens
drown
fischer
forms
gig
happily
humble
insisted
joshua
julie
july
liam
mills
missiles
override
prayer
randall
reception
reverend
rub
spear
suite
talented
teachers
thor
titan
underwear
unlock
##ained
##aline
##ath
##cakes
##ected
##oy
##ula
affected
announcement
apollo
backs
briefcase
broad
cemetery
closely
creation
defeated
described
elsa
envy
eren
gale
generator
golf
honeymoon
institution
italy
knives
korea
lads
lannisters
largest
lean
neil
portal
pour
quarantine
reference
ritual
speaker
strikes
tattoos
temper
tragic
troubles
trucks
via
##ables
##aft
##atoes
##dicate
##ena
##ige
##ility
##key
##lash
##lve
##mar
##obi
##rad
##ugh
##ught
##uman
10k
alike
anderson
brutal
budget
consultant
counsel
distraction
fringe
funds
gibbs
gimme
glorious
greek
haul
informant
operational
pd
pearl
polite
react
rogue
seeking
separated
suggested
terminal
theme
thunder
unstable
waitress
whale
whistler
worrying
##arm
##asing
##cil
##cur
##gin
##gue
##lim
##ope
##rates
##sts
##ughter
##uis
##urf
admitted
alliance
arisa
arriving
award
booked
capacity
cheated
clone
cocaine
corps
creative
deaf
dolores
dramatic
eats
fairly
fears
framed
harvest
keith
lousy
manny
ministry
monitoring
nap
organs
penis
pill
plants
prior
ross
samurai
scent
script
tricky
##dam
##gging
##gn
##illy
##pable
##rive
##rupt
##ski
##the
##uate
accomplished
areas
cafe
casino
clothing
clown
complain
contained
cos
cyril
document
fled
folk
fooled
illness
iseshima
jeff
judy
kilo
linc
lister
minimum
pirates
racing
reckon
reynolds
richie
saeko
slight
stepping
sunshine
types
unhappy
warden
wu
##ael
##break
##locks
##ncing
##ngo
##tering
##uary
##ums
applied
bingo
burst
celebrating
eliminate
extraction
facilities
fastest
gene
gettin
guitar
howl
ideal
issued
judith
lloyd
mummy
pleasant
privilege
proves
returns
screwing
shutting
soda
surprises
tune
vulcan
wired
yah
##ale
##din
##eria
##front
##hl
##iary
##imp
##ique
##lution
##ppy
##rator
accountant
accurate
adele
ambush
authorized
begged
bernie
blank
blessing
chapter
daimon
desmond
drawer
eastern
engagement
fathers
formation
gloria
handling
indicates
keen
matthews
maximum
mayday
mexican
missy
nearest
oldest
questioned
restore
salad
signals
sutter
tense
versus
wan
##ats
##bar
##going
##inary
##lam
##layer
##lene
##mura
##ola
##pend
##rant
##rough
##rted
##tar
##tric
##tta
##unted
##uts
ancestors
anxious
cattle
chester
colors
cooked
daylight
distress
donna
friggin
gambling
hanson
hunters
instincts
ip
jews
lookin
matrix
medal
merle
misunderstanding
officials
ouch
pam
perpetrator
phillips
plates
poker
pole
rebuild
remotely
robbie
scotch
supper
trains
uhh
various
vic
wakes
whistle
##aby
##aving
##ception
##ester
##face
##hing
##nation
##oes
##omic
##rious
##rson
##sky
##so
##some
##ump
##vel
abort
achieve
additional
andre
brotherhood
bum
capitol
cart
cdc
chatter
debate
dose
edith
embrace
explode
eyed
furniture
georgia
gregson
ivy
lazy
lethal
lingerie
lydia
masks
method
naomi
physically
pm
resume
samuel
singer
spray
stare
talkin
thumb
toe
vanished
wyatt
##cating
##cial
##dict
##edly
##eds
##ei
##fusion
##illian
##lick
##pack
##ttered
##ush
##uthor
anthony
armstrong
blanket
boot
broyles
caroline
classes
collapse
consistent
copies
crushed
daisy
december
evelyn
exam
fashioned
floating
galaxy
harmless
mae
mere
models
omar
orbit
orleans
owes
recipe
shining
struggling
toss
##ake
##hill
##iac
##ix
##laming
##nia
##pense
##tings
##tone
##ulations
##ution
##yl
activate
circles
culture
develop
domestic
dreamed
dumbledore
dunno
explosive
fixing
fortunately
freddie
gently
higashida
irving
jewish
kay
leslie
lewis
logan
loki
magnificent
maurice
objective
players
revealed
sacrificed
salary
solomon
sonya
stephanie
superhero
surprising
tits
viktor
##active
##ains
##bu
##cking
##cus
##dated
##lating
##life
##oot
##ploy
##ribe
##tated
##titude
##una
##vated
##vity
##yon
brace
caitlin
castiel
commitment
constant
ctu
dime
eager
festival
flu
frog
headache
instance
kneel
labor
lame
laser
le
mack
maniac
manners
materials
messy
needing
nemo
op
retirement
scaring
shields
sorts
stamp
sunset
trials
##alled
##beat
##bin
##bot
##burg
##icial
##nies
##ont
##pire
##quez
##uct
##uppet
##wise
advised
attracted
cherry
crawl
defending
deo
disappoint
examine
follows
guidance
haqqani
interpol
involve
juma
kindly
leadership
maester
philip
screams
southern
steven
tapes
taxes
terry
tire
tracker
##acle
##arily
##bert
##fect
##hade
##haw
##ibility
##ict
##ives
##loat
##mission
##oil
##rdo
##rel
##rew
##rip
##rium
##tract
##ucking
##ult
##you
ahem
allison
armies
arrows
bugs
cao
chan
circuit
compliment
concept
controlling
convincing
eleven
farmer
favour
films
hosts
hugh
impress
info
krypton
linked
liquid
logic
mall
manual
marvin
misery
offices
owners
pakistan
peeta
psychological
referring
reset
robinson
soviet
thus
toxic
ultimate
unh
vengeance
vicki
whispering
willie
##aire
##cca
##cracy
##date
##dington
##eat
##gant
##iko
##lair
##llow
##lyn
##nds
##pending
##rations
##rest
##ugs
600
backyard
bells
bingley
burnt
catholic
cersei
chancellor
chesapeake
companion
conclusion
convenient
crawling
dressing
electronic
execution
fuhrer
heroin
immunity
importantly
january
juliet
latin
michelle
musical
owed
pillow
queens
ransom
rendezvous
risks
rode
sensors
slaughter
spots
worldwide
yuriko
##amic
##case
##ctions
##erate
##erce
##iating
##love
##osa
##prove
##rassment
##ridge
##ruise
##venience
##wen
38
absurd
actress
approval
audio
beam
boarding
candidate
cylons
dated
deceased
factor
goods
happier
hayato
hershel
hobby
initial
irene
items
launched
mode
panel
pub
rainbow
renee
secured
serum
spying
suspended
suspicion
terrifying
ton
tunnels
vast
vital
wednesday
##ancy
##eck
##erald
##ffs
##gression
##heus
##iana
##ib
##ime
##iving
##ivity
##plore
##rdy
##rily
##sity
##sman
##ua
##uating
accomplice
ankle
announce
basis
berenson
cannon
couples
dismissed
diversion
enormous
era
evacuation
everyday
fee
fist
floors
fry
grunts
hikaru
hunger
islands
isolated
journalist
leather
lend
lighter
marrying
melanie
memorial
moss
nations
operator
passage
piggy
popped
practicing
precise
robots
roman
sadly
scenes
secretly
spain
stack
stash
stink
stuffed
swallow
tribe
vietnam
wreck
##10
##bus
##cock
##craft
##dre
##egan
##eve
##hed
##how
##master
##name
##nuts
##ound
##pace
##rook
##rra
##rting
##ruz
##sters
amelia
analyst
anyways
baratheon
burkhardt
buyer
caesar
christina
cliff
dedicated
dial
ditch
drivers
endless
erased
fireworks
fracture
grenade
hong
hound
joon
kenny
legally
mikey
nerves
obi
pierre
plague
praise
purple
quantico
rarely
regardless
regards
reminder
requesting
rex
ribs
russo
savage
shiny
shoulders
snakes
sucker
theories
tyrion
##ature
##cence
##eous
##list
##oru
##rats
##rify
##ros
##sia
##sin
##wat
allows
comms
consent
cycle
dentist
divine
element
feeds
fi
fu
harbor
hostile
immune
ink
inspiration
interviews
lure
medic
murderers
nana
possess
possessed
pressing
raped
reckless
reserve
sandy
spinning
statue
technical
vain
wealth
wha
worthless
##abled
##amine
##asket
##aze
##bid
##cat
##clined
##ept
##gate
##gi
##hal
##heads
##jection
##lerate
##liss
##lord
##lying
##ored
##phere
##ras
##ricted
##une
acted
administration
blackmail
bloom
corridor
corruption
cynthia
developing
display
elise
farewell
instant
interrupting
laughed
moore
naive
paths
poisoning
risking
servers
shocked
slice
tina
toby
tournament
twin
werewolf
youngest
##cia
##city
##ement
##erland
##ety
##eur
##fare
##formed
##mont
##osed
##rage
##solved
##struct
##tend
##uli
abroad
bennett
blend
cabinet
carmine
ceiling
click
clues
colin
commissioner
concrete
coven
detected
diplomatic
directions
dish
duncan
failing
formula
foundation
fractures
frost
fuckers
glades
inspired
jonas
journal
kane
khalid
knights
nasa
oops
qualified
rejected
religion
reminded
scouts
shove
skies
smelled
souta
spreading
subtle
swords
thrilled
toes
valentine
vega
winchester
wished
worn
##15
##bey
##done
##een
##ev
##isk
##itimate
##oka
##omy
##pass
##quet
##rome
##stitution
##ucky
##vable
alfred
alma
almeida
attic
awfully
billions
breed
clouds
contains
conversations
cult
diary
dignity
excuses
exits
geez
gina
graduated
growth
hesitate
independent
inevitable
interference
jessie
ladder
lip
mo
particle
petty
prayers
raising
recruited
region
remembers
rotten
sakes
seed
shelf
spark
sparrow
spencer
squirrel
stream
strongest
substance
sultan
triggered
westeros
wires
zs
##bers
##ccupied
##ciple
##dous
##hire
##iting
##keeper
##lands
##lap
##len
##lier
##liness
##nance
##odore
##oked
##rase
##ratic
##rude
##structed
##tern
##tire
##tration
##view
##world
addition
blunt
booze
bryce
canceled
confidential
containment
content
crane
disorder
dock
ellison
encrypted
experiencing
finn
freaks
gallery
generations
homeless
investigator
iran
jurisdiction
kiddo
kung
meets
mini
miriam
motorcycle
neat
payback
presume
prey
risky
rocky
sheldon
shocking
shout
sire
sonny
sting
tons
wendy
wrath
##aration
##coon
##cott
##cuse
##have
##iny
##itions
##mma
##nox
##och
##oting
##pice
##vi
##via
##ypical
##zie
##zzle
addict
ann
butler
chains
compare
continued
cuz
dar
diggle
editor
ego
elite
endure
eternity
fiction
fluid
harsh
jadalla
listed
locks
margaret
maze
menu
misses
monk
naughty
organic
performed
permit
promising
protector
relations
ruled
rv
smashed
soccer
strictly
survivor
targaryen
thorough
tide
wagon
wandering
##bow
##ckey
##corn
##ctic
##dest
##dock
##ented
##indy
##itch
##jack
##lank
##leton
##lit
##nly
##ntial
##owed
##pool
##rait
##rged
##uity
49
approached
bits
bush
caution
charging
chi
collecting
compromise
confusing
doe
dummy
elected
elsewhere
erase
exception
gee
graduate
hush
javadi
jody
length
motherfuckers
ohio
outstanding
owada
poke
products
protective
richards
sneaking
sore
spared
spill
stores
stuart
studies
sunny
tick
visions
##abe
##abelle
##ader
##cre
##culation
##ency
##fe
##gile
##hran
##immer
##iness
##iot
##lary
##lter
##nack
##ool
##press
##psy
##quired
##raki
##rella
##rice
##rogate
##ssion
##uh
##uished
##ursing
##venge
##victed
##wig
amateur
approved
artificial
axe
battlefield
beers
bees
chewing
clubs
commission
crawford
decade
delighted
disturbing
dutch
establish
faint
farther
feared
forbidden
goodnight
hatake
hawk
hermione
hopeless
hospitals
israel
joel
lawn
missions
processing
realise
rebel
recruit
rehab
robb
rusty
satellites
scars
senor
shipment
stanley
suggestion
supposedly
targeted
unfair
volunteered
wildlings
worm
##awa
##burgh
##cco
##ems
##erer
##fa
##hony
##ike
##itude
##llas
##proof
##san
##tainment
##tched
##tended
##thetic
##thy
##tics
##uns
##urry
##uss
##uties
37
accomplish
activities
adults
application
batch
betting
carbon
champ
claus
climbing
cub
dealers
define
disappearance
drain
dusty
economy
fabulous
firewall
freed
genuine
hans
ignored
increased
interfere
jin
lunatic
marco
melon
mullins
nazis
originally
pacific
parade
poetry
scares
slap
troy
##11
##acher
##ads
##aming
##aul
##ceive
##cie
##cretion
##eg
##eping
##gister
##iane
##icate
##ini
##inity
##iper
##ista
##lass
##lets
##ndor
##ord
##osing
##phisticated
##plant
##quake
##reep
##rict
##ried
##riot
##secution
##ubble
##ued
##uise
##ulates
##unce
##unities
##vised
33
ad
alvin
arrangements
bass
bio
celebration
collateral
dent
earl
elena
essential
exclusive
exposure
favors
filling
finishing
greedy
hawaii
hazel
healed
hull
im
kin
pat
pony
prosecutor
rally
remembering
secretariat
sheet
sole
taller
te
towel
trinity
vanessa
visa
weaver
yuki
##50
##aki
##alking
##cturing
##ducing
##father
##get
##hin
##ids
##itiate
##mann
##mistry
##nel
##nes
##nge
##nus
##oth
##phan
##rez
##rix
##roni
##tery
##umed
##utton
abaddon
artery
ashley
atlanta
banana
bent
birkhoff
cathy
civilization
clyde
coins
creed
custom
depressed
dragging
drake
elaborate
falcone
fsa
graves
hardest
inventory
kindness
linus
margot
mothers
opponent
pa
pale
representative
resting
ricky
robin
seizure
specialist
stroke
sully
timeline
winston
##alty
##ara
##balls
##cake
##cht
##com
##crow
##demic
##ede
##ever
##gor
##lles
##oar
##oku
##ractical
##reak
##rne
##rphine
##soever
##tical
##uest
##uge
##valry
##vent
##viving
31
abel
acquaintance
bench
clears
collapsed
comm
commands
compassion
contest
cue
delivering
den
diet
discussing
disturb
exhibit
exploded
fiancee
floyd
hacking
identical
involvement
joker
jupiter
kurt
loses
machete
mitch
myth
origin
pace
programs
protocols
psych
relative
runway
settlement
shares
sheets
somewhat
stephen
teenage
teenager
timmy
travels
tub
visualize
wallace
wand
wealthy
##!
##"
###
##$
##%
##'
##(
##)
##*
##+
##,
##-
##.
##/
##:
##;
##=
##?
##@
##[
##\
##]
##^
##_
##`
##{
##}
##~
##¡
##¢
##£
##¤
##¥
##¦
##§
##©
##¬
##®
##°
##±
##¶
##·
##¿
##×
##æ
##ð
##ø
##þ
##ı
##ł
##ƒ
##α
##β
##δ
##ε
##η
##θ
##κ
##μ
##ν
##ο
##σ
##τ
##а
##в
##г
##о
##р
##т
##у
##ђ
##–
##—
##‚
##‡
##•
##‰
##⁄
##€
##→
##⇒
##⌠
##☃
##☺
##☻
##♥
##♪
##♫
##❤
##。
##《
##》
##「
##」
##あ
##い
##う
##え
##く
##せ
##た
##っ
##て
##と
##な
##に
##の
##は
##ひ
##ま
##め
##り
##る
##わ
##を
##不
##両
##人
##南
##受
##味
##唄
##左
##库
##後
##意
##手
##拉
##握
##斬
##最
##歡
##死
##決
##無
##的
##索
##締
##胸
##苏
##茅
##裂
##言
##迎
##里
##
##�
